{
  "version": "1.0",
  "truncation": null,
  "padding": null,
  "added_tokens": [
    {
      "id": 0,
      "content": "[PAD]",
      "single_word": false,
      "lstrip": false,
      "rstrip": false,
      "normalized": false,
      "special": true
    },
    {
      "id": 1,
      "content": "[BOS]",
      "single_word": false,
      "lstrip": false,
      "rstrip": false,
      "normalized": false,
      "special": true
    },
    {
      "id": 2,
      "content": "[EOS]",
      "single_word": false,
      "lstrip": false,
      "rstrip": false,
      "normalized": false,
      "special": true
    },
    {
      "id": 3,
      "content": "[UNK]",
      "single_word": false,
      "lstrip": false,
      "rstrip": false,
      "normalized": false,
      "special": true
    }
  ],
  "normalizer": {
    "type": "NFKC"
  },
  "pre_tokenizer": {
    "type": "ByteLevel",
    "add_prefix_space": false,
    "trim_offsets": true,
    "use_regex": true
  },
  "post_processor": null,
  "decoder": {
    "type": "ByteLevel",
    "add_prefix_space": true,
    "trim_offsets": true,
    "use_regex": true
  },
  "model": {
    "type": "BPE",
    "dropout": null,
    "unk_token": "[UNK]",
    "continuing_subword_prefix": null,
    "end_of_word_suffix": null,
    "fuse_unk": false,
    "byte_fallback": false,
    "ignore_merges": false,
    "vocab": {
      "[PAD]": 0,
      "[BOS]": 1,
      "[EOS]": 2,
      "[UNK]": 3,
      "!": 4,
      "\"": 5,
      "%": 6,
      "'": 7,
      "(": 8,
      ")": 9,
      ",": 10,
      "-": 11,
      ".": 12,
      "/": 13,
      "0": 14,
      "1": 15,
      "2": 16,
      "3": 17,
      "4": 18,
      "5": 19,
      "6": 20,
      "7": 21,
      "8": 22,
      "9": 23,
      ":": 24,
      ";": 25,
      "?": 26,
      "A": 27,
      "B": 28,
      "C": 29,
      "D": 30,
      "E": 31,
      "F": 32,
      "G": 33,
      "H": 34,
      "I": 35,
      "J": 36,
      "K": 37,
      "L": 38,
      "M": 39,
      "N": 40,
      "O": 41,
      "P": 42,
      "Q": 43,
      "R": 44,
      "S": 45,
      "T": 46,
      "U": 47,
      "V": 48,
      "W": 49,
      "X": 50,
      "Y": 51,
      "Z": 52,
      "[": 53,
      "]": 54,
      "a": 55,
      "b": 56,
      "c": 57,
      "d": 58,
      "e": 59,
      "f": 60,
      "g": 61,
      "h": 62,
      "i": 63,
      "j": 64,
      "k": 65,
      "l": 66,
      "m": 67,
      "n": 68,
      "o": 69,
      "p": 70,
      "q": 71,
      "r": 72,
      "s": 73,
      "t": 74,
      "u": 75,
      "v": 76,
      "w": 77,
      "x": 78,
      "y": 79,
      "z": 80,
      "¡": 81,
      "£": 82,
      "¤": 83,
      "§": 84,
      "¨": 85,
      "©": 86,
      "ª": 87,
      "¯": 88,
      "³": 89,
      "´": 90,
      "¶": 91,
      "¸": 92,
      "¼": 93,
      "Â": 94,
      "Ã": 95,
      "Ġ": 96,
      "Ħ": 97,
      "ĸ": 98,
      "ľ": 99,
      "Ł": 100,
      "ł": 101,
      "Ń": 102,
      "en": 103,
      "er": 104,
      "Ġt": 105,
      "Ġd": 106,
      "in": 107,
      "ch": 108,
      "Ġa": 109,
      "on": 110,
      "Ġth": 111,
      "es": 112,
      "is": 113,
      "Ġw": 114,
      "un": 115,
      "it": 116,
      "Ġs": 117,
      "at": 118,
      "ie": 119,
      "or": 120,
      "Ġthe": 121,
      "re": 122,
      "ich": 123,
      "ion": 124,
      "an": 125,
      "Ġb": 126,
      "Ġo": 127,
      "Ġin": 128,
      "Ġm": 129,
      "ar": 130,
      "al": 131,
      "Ġf": 132,
      "ro": 133,
      "Ġe": 134,
      "te": 135,
      "le": 136,
      "ent": 137,
      "Ġan": 138,
      "Ġn": 139,
      "Ġp": 140,
      "Ġh": 141,
      "Ġc": 142,
      "Ġun": 143,
      "ge": 144,
      "om": 145,
      "Ã¼": 146,
      "Ġof": 147,
      "Ġto": 148,
      "st": 149,
      "Ã¤": 150,
      "ung": 151,
      "Ġder": 152,
      "Ġdie": 153,
      "Ġbe": 154,
      "Ġv": 155,
      "ur": 156,
      "as": 157,
      "ll": 158,
      "ing": 159,
      "Ġand": 160,
      "Ġund": 161,
      "us": 162,
      "ed": 163,
      "Ġis": 164,
      "ĠE": 165,
      "ir": 166,
      "ÃŁ": 167,
      "ig": 168,
      "Ġz": 169,
      "ĠS": 170,
      "Ġein": 171,
      "ĠP": 172,
      "omm": 173,
      "ra": 174,
      "ic": 175,
      "im": 176,
      "em": 177,
      "eit": 178,
      "Ġre": 179,
      "ĠA": 180,
      "ut": 181,
      "et": 182,
      "Ġg": 183,
      "icht": 184,
      "id": 185,
      "ĠB": 186,
      "ve": 187,
      "ĠM": 188,
      "ies": 189,
      "ul": 190,
      "am": 191,
      "iss": 192,
      "sch": 193,
      "ol": 194,
      "ation": 195,
      "ten": 196,
      "ter": 197,
      "ĠK": 198,
      "rop": 199,
      "lich": 200,
      "ĠI": 201,
      "el": 202,
      "Ġthat": 203,
      "der": 204,
      "den": 205,
      "ber": 206,
      "hr": 207,
      "ommiss": 208,
      "ĠR": 209,
      "Ġzu": 210,
      "ĠC": 211,
      "gen": 212,
      "ct": 213,
      "Ġwh": 214,
      "il": 215,
      "Ġau": 216,
      "Ã¶": 217,
      "Ġl": 218,
      "Ã¼r": 219,
      "Ġda": 220,
      "ere": 221,
      "ommission": 222,
      "Ġfor": 223,
      "Ġden": 224,
      "ĠF": 225,
      "Ġk": 226,
      "ly": 227,
      "isch": 228,
      "ĠV": 229,
      "Ġon": 230,
      "urop": 231,
      "Ġha": 232,
      "ort": 233,
      "Ġwir": 234,
      "Ġno": 235,
      "de": 236,
      "res": 237,
      "um": 238,
      "ein": 239,
      "ĠG": 240,
      "Ġwe": 241,
      "ff": 242,
      "Ġim": 243,
      "Ġge": 244,
      "Th": 245,
      "Ġal": 246,
      "Ġst": 247,
      "ĠEurop": 248,
      "Ġso": 249,
      "ier": 250,
      "Ġdies": 251,
      "Ġthis": 252,
      "Ġcon": 253,
      "ĠdaÃŁ": 254,
      "est": 255,
      "ĠU": 256,
      "ben": 257,
      "Ġvon": 258,
      "ce": 259,
      "os": 260,
      "ĠW": 261,
      "Ġit": 262,
      "ĠH": 263,
      "ĠfÃ¼r": 264,
      "ft": 265,
      "Ġver": 266,
      "ach": 267,
      "ill": 268,
      "men": 269,
      "ver": 270,
      "Ġer": 271,
      "kt": 272,
      "Ġare": 273,
      "Ġas": 274,
      "Ġauf": 275,
      "and": 276,
      "Ġdes": 277,
      "ith": 278,
      "Ġist": 279,
      "Ġpro": 280,
      "sp": 281,
      "ment": 282,
      "ess": 283,
      "Ġne": 284,
      "Ġnicht": 285,
      "ble": 286,
      "uld": 287,
      "Ġwith": 288,
      "Ġdas": 289,
      "ust": 290,
      "ĠVer": 291,
      "ould": 292,
      "ĠRe": 293,
      "ĠUn": 294,
      "Ġnot": 295,
      "ke": 296,
      "ungen": 297,
      "Ġwhich": 298,
      "ĠCommission": 299,
      "ate": 300,
      "ischen": 301,
      "ĠD": 302,
      "pp": 303,
      "ĠT": 304,
      "be": 305,
      "Ġde": 306,
      "Ġhave": 307,
      "for": 308,
      "ial": 309,
      "ĠSt": 310,
      "99": 311,
      "Ġj": 312,
      "ive": 313,
      "la": 314,
      "Ġals": 315,
      "Ġwer": 316,
      "Ã¤n": 317,
      "end": 318,
      "ind": 319,
      "Ġse": 320,
      "if": 321,
      "Ġwill": 322,
      "ament": 323,
      "arl": 324,
      "th": 325,
      "Ġeine": 326,
      "ident": 327,
      "ity": 328,
      "ĠL": 329,
      "Ġle": 330,
      "ts": 331,
      "we": 332,
      "ĠEurope": 333,
      "Ġich": 334,
      "ĠKommission": 335,
      "Ġwerden": 336,
      "Ġes": 337,
      "ĠZ": 338,
      "Ġex": 339,
      "op": 340,
      "Ġ1": 341,
      "ay": 342,
      "Ã¼ber": 343,
      "ant": 344,
      "Ġdem": 345,
      "qu": 346,
      "ug": 347,
      "lie": 348,
      "ste": 349,
      "ions": 350,
      "ĠParl": 351,
      "Ġ-": 352,
      "Ġmit": 353,
      "err": 354,
      "nen": 355,
      "sen": 356,
      "scha": 357,
      "The": 358,
      "iv": 359,
      "Ġall": 360,
      "Ġsh": 361,
      "Ġy": 362,
      "ck": 363,
      "ah": 364,
      "Ġvor": 365,
      "Ġr": 366,
      "ann": 367,
      "uch": 368,
      "igen": 369,
      "Ġauch": 370,
      "Ġdo": 371,
      "eh": 372,
      "rÃ¤": 373,
      "Ġcom": 374,
      "uÃŁ": 375,
      "Ġby": 376,
      "ern": 377,
      "schaft": 378,
      "ĠEuropean": 379,
      "ect": 380,
      "Ġreg": 381,
      "port": 382,
      "ik": 383,
      "our": 384,
      "ht": 385,
      "ens": 386,
      "aus": 387,
      "ĠÃ¼ber": 388,
      "oun": 389,
      "Ġhas": 390,
      "Ġsich": 391,
      "ran": 392,
      "ĠAn": 393,
      "itte": 394,
      "ds": 395,
      "ow": 396,
      "art": 397,
      "Ġuns": 398,
      "ru": 399,
      "ure": 400,
      "ĠIn": 401,
      "Ġres": 402,
      "heit": 403,
      "ien": 404,
      "hal": 405,
      "Ġwie": 406,
      "ungs": 407,
      "ĠUnion": 408,
      "Ġme": 409,
      "ist": 410,
      "ges": 411,
      "Ġum": 412,
      "ers": 413,
      "Ġma": 414,
      "uf": 415,
      "Ġaus": 416,
      "ĠN": 417,
      "ab": 418,
      "ĠJ": 419,
      "Ġwird": 420,
      "ub": 421,
      "Ġat": 422,
      "Ġab": 423,
      "00": 424,
      "keit": 425,
      "Ġsp": 426,
      "up": 427,
      "ĠSch": 428,
      "ib": 429,
      "Ġalso": 430,
      "ted": 431,
      "iel": 432,
      "ĠBer": 433,
      "ast": 434,
      "ĠBe": 435,
      "ĠFra": 436,
      "llen": 437,
      "wer": 438,
      "ĠAus": 439,
      "Ġor": 440,
      "Ġhat": 441,
      "Ġcomp": 442,
      "me": 443,
      "etz": 444,
      "lichen": 445,
      "Ġwould": 446,
      "beit": 447,
      "ad": 448,
      "Ġthere": 449,
      "ih": 450,
      "nt": 451,
      "Ġsch": 452,
      "ahr": 453,
      "ord": 454,
      "Ġsind": 455,
      "ĠPro": 456,
      "ain": 457,
      "all": 458,
      "aat": 459,
      "hen": 460,
      "olit": 461,
      "Ġta": 462,
      "tern": 463,
      "tz": 464,
      "tro": 465,
      "Die": 466,
      "Ġzur": 467,
      "ĠAr": 468,
      "ous": 469,
      "Ich": 470,
      "Ġwas": 471,
      "Ġsa": 472,
      "ĠVor": 473,
      "ue": 474,
      "ot": 475,
      "Ġdar": 476,
      "Ã¤ischen": 477,
      "ition": 478,
      "cial": 479,
      "ige": 480,
      "form": 481,
      "ken": 482,
      "Ã¶r": 483,
      "ip": 484,
      "ĠmÃ¶": 485,
      "rÃ¤s": 486,
      "Ġent": 487,
      "ĠPres": 488,
      "ische": 489,
      "eren": 490,
      "chte": 491,
      "ĠBericht": 492,
      "ational": 493,
      "iament": 494,
      "cht": 495,
      "ese": 496,
      "ri": 497,
      "Ġhaben": 498,
      "Ġ199": 499,
      "ember": 500,
      "dern": 501,
      "rÃ¤sident": 502,
      "We": 503,
      "ĠEr": 504,
      "se": 505,
      "Ã¼s": 506,
      "In": 507,
      "ise": 508,
      "enn": 509,
      "Ġwor": 510,
      "und": 511,
      "Ġmust": 512,
      "Ġshould": 513,
      "ations": 514,
      "ĠParlament": 515,
      "ĠMr": 516,
      "fen": 517,
      "Ġapp": 518,
      "ire": 519,
      "Ġsie": 520,
      "ates": 521,
      "esch": 522,
      "ou": 523,
      "od": 524,
      "Ġbeen": 525,
      "Ġsein": 526,
      "Ġag": 527,
      "ish": 528,
      "Ġad": 529,
      "gt": 530,
      "Ġbet": 531,
      "ĠEnt": 532,
      "ms": 533,
      "Ġam": 534,
      "Ġnach": 535,
      "Ġeiner": 536,
      "ĠHerr": 537,
      "Ġdis": 538,
      "Ġbut": 539,
      "Ġpart": 540,
      "Ã¶n": 541,
      "Ġli": 542,
      "urch": 543,
      "ud": 544,
      "Ġman": 545,
      "ĠPrÃ¤sident": 546,
      "Ġreport": 547,
      "ert": 548,
      "Ġour": 549,
      "Ã¼hr": 550,
      "Ġen": 551,
      "ore": 552,
      "rom": 553,
      "gra": 554,
      "Ġ2": 555,
      "mp": 556,
      "ĠÃ": 557,
      "ĠParliament": 558,
      "iz": 559,
      "rÃ¼": 560,
      "lic": 561,
      "cc": 562,
      "Ġyou": 563,
      "Ġqu": 564,
      "ĠPresident": 565,
      "Ã¼ssen": 566,
      "Ġunter": 567,
      "ĠReg": 568,
      "con": 569,
      "ĠO": 570,
      "ult": 571,
      "age": 572,
      "Ġhe": 573,
      "Ã¤r": 574,
      "ĠAb": 575,
      "ther": 576,
      "anz": 577,
      "ally": 578,
      "Ġcomm": 579,
      "her": 580,
      "able": 581,
      "Ġfa": 582,
      "Ġprop": 583,
      "vel": 584,
      "Ġste": 585,
      "ger": 586,
      "ard": 587,
      "Ġbei": 588,
      "ome": 589,
      "Ã¤t": 590,
      "Ġfrom": 591,
      "liche": 592,
      "ne": 593,
      "Ġob": 594,
      "Ġus": 595,
      "olle": 596,
      "ionen": 597,
      "Ġconc": 598,
      "Ġlike": 599,
      "ĠmÃ¼ssen": 600,
      "ap": 601,
      "ĠMit": 602,
      "ĠkÃ¶n": 603,
      "Ġimp": 604,
      "ĠmÃ¶chte": 605,
      "ĠGe": 606,
      "ommen": 607,
      "ĠMember": 608,
      "Ġspe": 609,
      "chen": 610,
      "Ġdiese": 611,
      "Ġneed": 612,
      "rit": 613,
      "ffen": 614,
      "ze": 615,
      "zu": 616,
      "Ġfin": 617,
      "igkeit": 618,
      "Wir": 619,
      "ction": 620,
      "Ġeinen": 621,
      "ett": 622,
      "gram": 623,
      "glie": 624,
      "kl": 625,
      "lin": 626,
      "yste": 627,
      "Ġmein": 628,
      "Ġco": 629,
      "Ġits": 630,
      "Ġcan": 631,
      "gan": 632,
      "out": 633,
      "ĠmuÃŁ": 634,
      "ime": 635,
      "ute": 636,
      "olic": 637,
      "icher": 638,
      "Ġleg": 639,
      "ary": 640,
      "che": 641,
      "Ġzw": 642,
      "rie": 643,
      "he": 644,
      "Ġgo": 645,
      "Ġdiesem": 646,
      "Ġsoll": 647,
      "Ġdieser": 648,
      "Ġaber": 649,
      "Ġnoch": 650,
      "This": 651,
      "reat": 652,
      "ahmen": 653,
      "ount": 654,
      "ransp": 655,
      "staat": 656,
      "tschaft": 657,
      "Ġdurch": 658,
      "ounc": 659,
      "It": 660,
      "Mr": 661,
      "sicht": 662,
      "Ġwur": 663,
      "Ġpos": 664,
      "sten": 665,
      "Ġeff": 666,
      "ieren": 667,
      "bewer": 668,
      "og": 669,
      "Ã¤nd": 670,
      "Das": 671,
      "Ġeurop": 672,
      "ĠSie": 673,
      "Ġpolic": 674,
      "mer": 675,
      "ress": 676,
      "ittel": 677,
      "Ġzum": 678,
      "pt": 679,
      "Ġih": 680,
      "Ġsu": 681,
      "Ġexp": 682,
      "au": 683,
      "king": 684,
      "ĠEuropÃ¤ischen": 685,
      "Ġcompet": 686,
      "ject": 687,
      "lo": 688,
      "ks": 689,
      "Ġmore": 690,
      "Ġpropos": 691,
      "Ġalle": 692,
      "ettbewer": 693,
      "ettbewerb": 694,
      "Ġinc": 695,
      "uss": 696,
      "ĠEU": 697,
      "ouncil": 698,
      "ĠCouncil": 699,
      "ĠArbeit": 700,
      "cy": 701,
      "ative": 702,
      "olitik": 703,
      "Ġthese": 704,
      "Ġgro": 705,
      "glied": 706,
      "Ġpo": 707,
      "ĠComm": 708,
      "ĠkÃ¶nnen": 709,
      "ional": 710,
      "Ġnur": 711,
      "Ġkann": 712,
      "Ġvery": 713,
      "aÃŁ": 714,
      "glich": 715,
      "imm": 716,
      "Ġbes": 717,
      "trol": 718,
      "Herr": 719,
      "ark": 720,
      "ice": 721,
      "sid": 722,
      "Ġber": 723,
      "Ġwenn": 724,
      "fore": 725,
      "tra": 726,
      "ance": 727,
      "iden": 728,
      "Ġacc": 729,
      "ear": 730,
      "Ġ(": 731,
      "ang": 732,
      "Ġiss": 733,
      "oh": 734,
      "leich": 735,
      "Ã¼n": 736,
      "Ġjust": 737,
      "Ġla": 738,
      "Ġimport": 739,
      "ordn": 740,
      "ĠKon": 741,
      "ierung": 742,
      "Ġgen": 743,
      "ely": 744,
      "och": 745,
      "Ġup": 746,
      "Ġpre": 747,
      "Ġone": 748,
      "Ġjed": 749,
      "usam": 750,
      "lear": 751,
      "ical": 752,
      "iert": 753,
      "ystem": 754,
      "icherheit": 755,
      "Ġtheir": 756,
      "stit": 757,
      "ĠEin": 758,
      "ĠStates": 759,
      "ight": 760,
      "usammen": 761,
      "du": 762,
      "erst": 763,
      "ank": 764,
      "gel": 765,
      "Ã¤hr": 766,
      "Ġwho": 767,
      "Ġnational": 768,
      "oll": 769,
      "Ġch": 770,
      "ose": 771,
      "Ġinter": 772,
      "Ġwhat": 773,
      "ĠWettbewerb": 774,
      "ehmen": 775,
      "ible": 776,
      "wir": 777,
      "Ġout": 778,
      "Ġresp": 779,
      "Ġi": 780,
      "ated": 781,
      "Ġhin": 782,
      "Ġmo": 783,
      "Ġmy": 784,
      "ural": 785,
      "ass": 786,
      "ĠMitglied": 787,
      "onder": 788,
      "ular": 789,
      "Ġsehr": 790,
      "ugh": 791,
      "ĠVorsch": 792,
      "are": 793,
      "Es": 794,
      "ĠRech": 795,
      "staaten": 796,
      "gr": 797,
      "ities": 798,
      "atter": 799,
      "cess": 800,
      "wend": 801,
      "ons": 802,
      "ement": 803,
      "ok": 804,
      "Ġtime": 805,
      "aren": 806,
      "Ġpe": 807,
      "iff": 808,
      "ution": 809,
      "ments": 810,
      "Ġpartic": 811,
      "Ġaid": 812,
      "ĠJahr": 813,
      "wic": 814,
      "pport": 815,
      "Ġif": 816,
      "Ġoder": 817,
      "arbeit": 818,
      "Ġcont": 819,
      "lieÃŁ": 820,
      "Ġconcern": 821,
      "fÃ¼hr": 822,
      "unkt": 823,
      "reich": 824,
      "Ġges": 825,
      "Ġkein": 826,
      "lag": 827,
      "ĠLe": 828,
      "ious": 829,
      "ry": 830,
      "Ã¼ck": 831,
      "Ġbec": 832,
      "ific": 833,
      "Ġcompetition": 834,
      "Ġper": 835,
      "Ġra": 836,
      "ĠRat": 837,
      "iÃŁ": 838,
      "elt": 839,
      "ak": 840,
      "Ġeinem": 841,
      "conom": 842,
      "Ġ\"": 843,
      "int": 844,
      "ĠWe": 845,
      "Ġdec": 846,
      "Ġpolicy": 847,
      "ag": 848,
      "Ġdam": 849,
      "lan": 850,
      "erv": 851,
      "ility": 852,
      "velop": 853,
      "oc": 854,
      "one": 855,
      "Ġnew": 856,
      "ause": 857,
      "alt": 858,
      "Ġihr": 859,
      "mein": 860,
      "vent": 861,
      "iven": 862,
      "ĠMitgliedstaaten": 863,
      "ced": 864,
      "los": 865,
      "ite": 866,
      "igh": 867,
      "Ġpolit": 868,
      "Ġparticular": 869,
      "lÃ¤": 870,
      "Ġweit": 871,
      "unity": 872,
      "Ġstr": 873,
      "ces": 874,
      "Ġpres": 875,
      "Ġsow": 876,
      "Ġabout": 877,
      "uth": 878,
      "etzt": 879,
      "wn": 880,
      "itu": 881,
      "ĠKolle": 882,
      "Ġyear": 883,
      "uen": 884,
      "Ġind": 885,
      "Ġint": 886,
      "Ġhier": 887,
      "assen": 888,
      "ĠRechts": 889,
      "Ġthey": 890,
      "Ġop": 891,
      "iger": 892,
      "teil": 893,
      "ase": 894,
      "Ġimportant": 895,
      "legen": 896,
      "entr": 897,
      "str": 898,
      "ĠCommissioner": 899,
      "Ġtake": 900,
      "fahr": 901,
      "tet": 902,
      "Ġonly": 903,
      "Ġwo": 904,
      "auf": 905,
      "Ġwicht": 906,
      "irst": 907,
      "Ġgegen": 908,
      "Ġdevelop": 909,
      "ine": 910,
      "inn": 911,
      "Ġmehr": 912,
      "000": 913,
      "Ġwurde": 914,
      "Ġtransp": 915,
      "Ġeconom": 916,
      "ĠZeit": 917,
      "itÃ¤t": 918,
      "Ġbeg": 919,
      "Ġgew": 920,
      "Ġdieses": 921,
      "ihil": 922,
      "Ġquest": 923,
      "Ġte": 924,
      "Ġany": 925,
      "Ġcount": 926,
      "Ġrec": 927,
      "Ġrel": 928,
      "ittee": 929,
      "ĠFrage": 930,
      "ĠArt": 931,
      "Ġproposal": 932,
      "uthor": 933,
      "Ġsome": 934,
      "Ġsay": 935,
      "ahl": 936,
      "ibt": 937,
      "ide": 938,
      "sche": 939,
      "Ġkon": 940,
      "ĠZusammen": 941,
      "Ġ1999": 942,
      "wickl": 943,
      "Ġpr": 944,
      "ame": 945,
      "amp": 946,
      "Ġnow": 947,
      "halb": 948,
      "nahmen": 949,
      "wort": 950,
      "Ġsol": 951,
      "geb": 952,
      "ĠeuropÃ¤ischen": 953,
      "ong": 954,
      "Ġfe": 955,
      "mittel": 956,
      "Ġother": 957,
      "Ġgu": 958,
      "Ġmake": 959,
      "ĠProble": 960,
      "Ġsuch": 961,
      "Ġrep": 962,
      "ĠKommiss": 963,
      "ween": 964,
      "Ġihre": 965,
      "Ġvie": 966,
      "ortug": 967,
      "ument": 968,
      "ĠDe": 969,
      "loy": 970,
      "Ġbereit": 971,
      "iti": 972,
      "Ġsub": 973,
      "Ġdeb": 974,
      "unds": 975,
      "Ġins": 976,
      "Ġintern": 977,
      "Ã¤ische": 978,
      "ings": 979,
      "ign": 980,
      "schie": 981,
      "derung": 982,
      "Ġwhen": 983,
      "ĠGr": 984,
      "Ġmark": 985,
      "Ġclear": 986,
      "Ġgr": 987,
      "bens": 988,
      "Ġbetween": 989,
      "stitut": 990,
      "ituation": 991,
      "ľber": 992,
      "Ġauthor": 993,
      "Ġho": 994,
      "ures": 995,
      "ĠBere": 996,
      "Ġagain": 997,
      "ĠKommissar": 998,
      "zial": 999
    },
    "merges": [
      [
        "e",
        "n"
      ],
      [
        "e",
        "r"
      ],
      [
        "Ġ",
        "t"
      ],
      [
        "Ġ",
        "d"
      ],
      [
        "i",
        "n"
      ],
      [
        "c",
        "h"
      ],
      [
        "Ġ",
        "a"
      ],
      [
        "o",
        "n"
      ],
      [
        "Ġt",
        "h"
      ],
      [
        "e",
        "s"
      ],
      [
        "i",
        "s"
      ],
      [
        "Ġ",
        "w"
      ],
      [
        "u",
        "n"
      ],
      [
        "i",
        "t"
      ],
      [
        "Ġ",
        "s"
      ],
      [
        "a",
        "t"
      ],
      [
        "i",
        "e"
      ],
      [
        "o",
        "r"
      ],
      [
        "Ġth",
        "e"
      ],
      [
        "r",
        "e"
      ],
      [
        "i",
        "ch"
      ],
      [
        "i",
        "on"
      ],
      [
        "a",
        "n"
      ],
      [
        "Ġ",
        "b"
      ],
      [
        "Ġ",
        "o"
      ],
      [
        "Ġ",
        "in"
      ],
      [
        "Ġ",
        "m"
      ],
      [
        "a",
        "r"
      ],
      [
        "a",
        "l"
      ],
      [
        "Ġ",
        "f"
      ],
      [
        "r",
        "o"
      ],
      [
        "Ġ",
        "e"
      ],
      [
        "t",
        "e"
      ],
      [
        "l",
        "e"
      ],
      [
        "en",
        "t"
      ],
      [
        "Ġa",
        "n"
      ],
      [
        "Ġ",
        "n"
      ],
      [
        "Ġ",
        "p"
      ],
      [
        "Ġ",
        "h"
      ],
      [
        "Ġ",
        "c"
      ],
      [
        "Ġ",
        "un"
      ],
      [
        "g",
        "e"
      ],
      [
        "o",
        "m"
      ],
      [
        "Ã",
        "¼"
      ],
      [
        "Ġo",
        "f"
      ],
      [
        "Ġt",
        "o"
      ],
      [
        "s",
        "t"
      ],
      [
        "Ã",
        "¤"
      ],
      [
        "un",
        "g"
      ],
      [
        "Ġd",
        "er"
      ],
      [
        "Ġd",
        "ie"
      ],
      [
        "Ġb",
        "e"
      ],
      [
        "Ġ",
        "v"
      ],
      [
        "u",
        "r"
      ],
      [
        "a",
        "s"
      ],
      [
        "l",
        "l"
      ],
      [
        "in",
        "g"
      ],
      [
        "Ġan",
        "d"
      ],
      [
        "Ġun",
        "d"
      ],
      [
        "u",
        "s"
      ],
      [
        "e",
        "d"
      ],
      [
        "Ġ",
        "is"
      ],
      [
        "Ġ",
        "E"
      ],
      [
        "i",
        "r"
      ],
      [
        "Ã",
        "Ł"
      ],
      [
        "i",
        "g"
      ],
      [
        "Ġ",
        "z"
      ],
      [
        "Ġ",
        "S"
      ],
      [
        "Ġe",
        "in"
      ],
      [
        "Ġ",
        "P"
      ],
      [
        "om",
        "m"
      ],
      [
        "r",
        "a"
      ],
      [
        "i",
        "c"
      ],
      [
        "i",
        "m"
      ],
      [
        "e",
        "m"
      ],
      [
        "e",
        "it"
      ],
      [
        "Ġ",
        "re"
      ],
      [
        "Ġ",
        "A"
      ],
      [
        "u",
        "t"
      ],
      [
        "e",
        "t"
      ],
      [
        "Ġ",
        "g"
      ],
      [
        "ich",
        "t"
      ],
      [
        "i",
        "d"
      ],
      [
        "Ġ",
        "B"
      ],
      [
        "v",
        "e"
      ],
      [
        "Ġ",
        "M"
      ],
      [
        "i",
        "es"
      ],
      [
        "u",
        "l"
      ],
      [
        "a",
        "m"
      ],
      [
        "is",
        "s"
      ],
      [
        "s",
        "ch"
      ],
      [
        "o",
        "l"
      ],
      [
        "at",
        "ion"
      ],
      [
        "t",
        "en"
      ],
      [
        "t",
        "er"
      ],
      [
        "Ġ",
        "K"
      ],
      [
        "ro",
        "p"
      ],
      [
        "l",
        "ich"
      ],
      [
        "Ġ",
        "I"
      ],
      [
        "e",
        "l"
      ],
      [
        "Ġth",
        "at"
      ],
      [
        "d",
        "er"
      ],
      [
        "d",
        "en"
      ],
      [
        "b",
        "er"
      ],
      [
        "h",
        "r"
      ],
      [
        "omm",
        "iss"
      ],
      [
        "Ġ",
        "R"
      ],
      [
        "Ġz",
        "u"
      ],
      [
        "Ġ",
        "C"
      ],
      [
        "g",
        "en"
      ],
      [
        "c",
        "t"
      ],
      [
        "Ġw",
        "h"
      ],
      [
        "i",
        "l"
      ],
      [
        "Ġa",
        "u"
      ],
      [
        "Ã",
        "¶"
      ],
      [
        "Ġ",
        "l"
      ],
      [
        "Ã¼",
        "r"
      ],
      [
        "Ġd",
        "a"
      ],
      [
        "er",
        "e"
      ],
      [
        "ommiss",
        "ion"
      ],
      [
        "Ġf",
        "or"
      ],
      [
        "Ġd",
        "en"
      ],
      [
        "Ġ",
        "F"
      ],
      [
        "Ġ",
        "k"
      ],
      [
        "l",
        "y"
      ],
      [
        "is",
        "ch"
      ],
      [
        "Ġ",
        "V"
      ],
      [
        "Ġ",
        "on"
      ],
      [
        "u",
        "rop"
      ],
      [
        "Ġh",
        "a"
      ],
      [
        "or",
        "t"
      ],
      [
        "Ġw",
        "ir"
      ],
      [
        "Ġn",
        "o"
      ],
      [
        "d",
        "e"
      ],
      [
        "r",
        "es"
      ],
      [
        "u",
        "m"
      ],
      [
        "e",
        "in"
      ],
      [
        "Ġ",
        "G"
      ],
      [
        "Ġw",
        "e"
      ],
      [
        "f",
        "f"
      ],
      [
        "Ġ",
        "im"
      ],
      [
        "Ġ",
        "ge"
      ],
      [
        "T",
        "h"
      ],
      [
        "Ġa",
        "l"
      ],
      [
        "Ġs",
        "t"
      ],
      [
        "ĠE",
        "urop"
      ],
      [
        "Ġs",
        "o"
      ],
      [
        "i",
        "er"
      ],
      [
        "Ġd",
        "ies"
      ],
      [
        "Ġth",
        "is"
      ],
      [
        "Ġc",
        "on"
      ],
      [
        "Ġda",
        "ÃŁ"
      ],
      [
        "es",
        "t"
      ],
      [
        "Ġ",
        "U"
      ],
      [
        "b",
        "en"
      ],
      [
        "Ġv",
        "on"
      ],
      [
        "c",
        "e"
      ],
      [
        "o",
        "s"
      ],
      [
        "Ġ",
        "W"
      ],
      [
        "Ġ",
        "it"
      ],
      [
        "Ġ",
        "H"
      ],
      [
        "Ġf",
        "Ã¼r"
      ],
      [
        "f",
        "t"
      ],
      [
        "Ġv",
        "er"
      ],
      [
        "a",
        "ch"
      ],
      [
        "i",
        "ll"
      ],
      [
        "m",
        "en"
      ],
      [
        "v",
        "er"
      ],
      [
        "Ġ",
        "er"
      ],
      [
        "k",
        "t"
      ],
      [
        "Ġa",
        "re"
      ],
      [
        "Ġa",
        "s"
      ],
      [
        "Ġau",
        "f"
      ],
      [
        "an",
        "d"
      ],
      [
        "Ġd",
        "es"
      ],
      [
        "it",
        "h"
      ],
      [
        "Ġis",
        "t"
      ],
      [
        "Ġp",
        "ro"
      ],
      [
        "s",
        "p"
      ],
      [
        "m",
        "ent"
      ],
      [
        "es",
        "s"
      ],
      [
        "Ġn",
        "e"
      ],
      [
        "Ġn",
        "icht"
      ],
      [
        "b",
        "le"
      ],
      [
        "ul",
        "d"
      ],
      [
        "Ġw",
        "ith"
      ],
      [
        "Ġd",
        "as"
      ],
      [
        "u",
        "st"
      ],
      [
        "ĠV",
        "er"
      ],
      [
        "o",
        "uld"
      ],
      [
        "ĠR",
        "e"
      ],
      [
        "ĠU",
        "n"
      ],
      [
        "Ġno",
        "t"
      ],
      [
        "k",
        "e"
      ],
      [
        "ung",
        "en"
      ],
      [
        "Ġwh",
        "ich"
      ],
      [
        "ĠC",
        "ommission"
      ],
      [
        "at",
        "e"
      ],
      [
        "isch",
        "en"
      ],
      [
        "Ġ",
        "D"
      ],
      [
        "p",
        "p"
      ],
      [
        "Ġ",
        "T"
      ],
      [
        "b",
        "e"
      ],
      [
        "Ġd",
        "e"
      ],
      [
        "Ġha",
        "ve"
      ],
      [
        "f",
        "or"
      ],
      [
        "i",
        "al"
      ],
      [
        "ĠS",
        "t"
      ],
      [
        "9",
        "9"
      ],
      [
        "Ġ",
        "j"
      ],
      [
        "i",
        "ve"
      ],
      [
        "l",
        "a"
      ],
      [
        "Ġal",
        "s"
      ],
      [
        "Ġw",
        "er"
      ],
      [
        "Ã¤",
        "n"
      ],
      [
        "en",
        "d"
      ],
      [
        "in",
        "d"
      ],
      [
        "Ġs",
        "e"
      ],
      [
        "i",
        "f"
      ],
      [
        "Ġw",
        "ill"
      ],
      [
        "am",
        "ent"
      ],
      [
        "ar",
        "l"
      ],
      [
        "t",
        "h"
      ],
      [
        "Ġein",
        "e"
      ],
      [
        "id",
        "ent"
      ],
      [
        "it",
        "y"
      ],
      [
        "Ġ",
        "L"
      ],
      [
        "Ġ",
        "le"
      ],
      [
        "t",
        "s"
      ],
      [
        "w",
        "e"
      ],
      [
        "ĠEurop",
        "e"
      ],
      [
        "Ġ",
        "ich"
      ],
      [
        "ĠK",
        "ommission"
      ],
      [
        "Ġwer",
        "den"
      ],
      [
        "Ġ",
        "es"
      ],
      [
        "Ġ",
        "Z"
      ],
      [
        "Ġe",
        "x"
      ],
      [
        "o",
        "p"
      ],
      [
        "Ġ",
        "1"
      ],
      [
        "a",
        "y"
      ],
      [
        "Ã¼",
        "ber"
      ],
      [
        "an",
        "t"
      ],
      [
        "Ġd",
        "em"
      ],
      [
        "q",
        "u"
      ],
      [
        "u",
        "g"
      ],
      [
        "l",
        "ie"
      ],
      [
        "s",
        "te"
      ],
      [
        "ion",
        "s"
      ],
      [
        "ĠP",
        "arl"
      ],
      [
        "Ġ",
        "-"
      ],
      [
        "Ġm",
        "it"
      ],
      [
        "er",
        "r"
      ],
      [
        "n",
        "en"
      ],
      [
        "s",
        "en"
      ],
      [
        "sch",
        "a"
      ],
      [
        "Th",
        "e"
      ],
      [
        "i",
        "v"
      ],
      [
        "Ġa",
        "ll"
      ],
      [
        "Ġs",
        "h"
      ],
      [
        "Ġ",
        "y"
      ],
      [
        "c",
        "k"
      ],
      [
        "a",
        "h"
      ],
      [
        "Ġv",
        "or"
      ],
      [
        "Ġ",
        "r"
      ],
      [
        "an",
        "n"
      ],
      [
        "u",
        "ch"
      ],
      [
        "ig",
        "en"
      ],
      [
        "Ġau",
        "ch"
      ],
      [
        "Ġd",
        "o"
      ],
      [
        "e",
        "h"
      ],
      [
        "r",
        "Ã¤"
      ],
      [
        "Ġc",
        "om"
      ],
      [
        "u",
        "ÃŁ"
      ],
      [
        "Ġb",
        "y"
      ],
      [
        "er",
        "n"
      ],
      [
        "scha",
        "ft"
      ],
      [
        "ĠEurope",
        "an"
      ],
      [
        "e",
        "ct"
      ],
      [
        "Ġre",
        "g"
      ],
      [
        "p",
        "ort"
      ],
      [
        "i",
        "k"
      ],
      [
        "o",
        "ur"
      ],
      [
        "h",
        "t"
      ],
      [
        "en",
        "s"
      ],
      [
        "a",
        "us"
      ],
      [
        "Ġ",
        "Ã¼ber"
      ],
      [
        "o",
        "un"
      ],
      [
        "Ġh",
        "as"
      ],
      [
        "Ġs",
        "ich"
      ],
      [
        "r",
        "an"
      ],
      [
        "ĠA",
        "n"
      ],
      [
        "it",
        "te"
      ],
      [
        "d",
        "s"
      ],
      [
        "o",
        "w"
      ],
      [
        "ar",
        "t"
      ],
      [
        "Ġun",
        "s"
      ],
      [
        "r",
        "u"
      ],
      [
        "u",
        "re"
      ],
      [
        "ĠI",
        "n"
      ],
      [
        "Ġ",
        "res"
      ],
      [
        "h",
        "eit"
      ],
      [
        "i",
        "en"
      ],
      [
        "h",
        "al"
      ],
      [
        "Ġw",
        "ie"
      ],
      [
        "ung",
        "s"
      ],
      [
        "ĠUn",
        "ion"
      ],
      [
        "Ġm",
        "e"
      ],
      [
        "is",
        "t"
      ],
      [
        "g",
        "es"
      ],
      [
        "Ġ",
        "um"
      ],
      [
        "er",
        "s"
      ],
      [
        "Ġm",
        "a"
      ],
      [
        "u",
        "f"
      ],
      [
        "Ġa",
        "us"
      ],
      [
        "Ġ",
        "N"
      ],
      [
        "a",
        "b"
      ],
      [
        "Ġ",
        "J"
      ],
      [
        "Ġwir",
        "d"
      ],
      [
        "u",
        "b"
      ],
      [
        "Ġa",
        "t"
      ],
      [
        "Ġa",
        "b"
      ],
      [
        "0",
        "0"
      ],
      [
        "k",
        "eit"
      ],
      [
        "Ġs",
        "p"
      ],
      [
        "u",
        "p"
      ],
      [
        "ĠS",
        "ch"
      ],
      [
        "i",
        "b"
      ],
      [
        "Ġals",
        "o"
      ],
      [
        "te",
        "d"
      ],
      [
        "ie",
        "l"
      ],
      [
        "ĠB",
        "er"
      ],
      [
        "a",
        "st"
      ],
      [
        "ĠB",
        "e"
      ],
      [
        "ĠF",
        "ra"
      ],
      [
        "ll",
        "en"
      ],
      [
        "w",
        "er"
      ],
      [
        "ĠA",
        "us"
      ],
      [
        "Ġ",
        "or"
      ],
      [
        "Ġh",
        "at"
      ],
      [
        "Ġcom",
        "p"
      ],
      [
        "m",
        "e"
      ],
      [
        "et",
        "z"
      ],
      [
        "lich",
        "en"
      ],
      [
        "Ġw",
        "ould"
      ],
      [
        "b",
        "eit"
      ],
      [
        "a",
        "d"
      ],
      [
        "Ġth",
        "ere"
      ],
      [
        "i",
        "h"
      ],
      [
        "n",
        "t"
      ],
      [
        "Ġs",
        "ch"
      ],
      [
        "a",
        "hr"
      ],
      [
        "or",
        "d"
      ],
      [
        "Ġs",
        "ind"
      ],
      [
        "ĠP",
        "ro"
      ],
      [
        "a",
        "in"
      ],
      [
        "al",
        "l"
      ],
      [
        "a",
        "at"
      ],
      [
        "h",
        "en"
      ],
      [
        "ol",
        "it"
      ],
      [
        "Ġt",
        "a"
      ],
      [
        "ter",
        "n"
      ],
      [
        "t",
        "z"
      ],
      [
        "t",
        "ro"
      ],
      [
        "D",
        "ie"
      ],
      [
        "Ġz",
        "ur"
      ],
      [
        "ĠA",
        "r"
      ],
      [
        "o",
        "us"
      ],
      [
        "I",
        "ch"
      ],
      [
        "Ġw",
        "as"
      ],
      [
        "Ġs",
        "a"
      ],
      [
        "ĠV",
        "or"
      ],
      [
        "u",
        "e"
      ],
      [
        "o",
        "t"
      ],
      [
        "Ġd",
        "ar"
      ],
      [
        "Ã¤",
        "ischen"
      ],
      [
        "it",
        "ion"
      ],
      [
        "c",
        "ial"
      ],
      [
        "i",
        "ge"
      ],
      [
        "for",
        "m"
      ],
      [
        "k",
        "en"
      ],
      [
        "Ã¶",
        "r"
      ],
      [
        "i",
        "p"
      ],
      [
        "Ġm",
        "Ã¶"
      ],
      [
        "rÃ¤",
        "s"
      ],
      [
        "Ġ",
        "ent"
      ],
      [
        "ĠP",
        "res"
      ],
      [
        "isch",
        "e"
      ],
      [
        "er",
        "en"
      ],
      [
        "ch",
        "te"
      ],
      [
        "ĠBer",
        "icht"
      ],
      [
        "ation",
        "al"
      ],
      [
        "i",
        "ament"
      ],
      [
        "ch",
        "t"
      ],
      [
        "es",
        "e"
      ],
      [
        "r",
        "i"
      ],
      [
        "Ġha",
        "ben"
      ],
      [
        "Ġ1",
        "99"
      ],
      [
        "em",
        "ber"
      ],
      [
        "der",
        "n"
      ],
      [
        "rÃ¤s",
        "ident"
      ],
      [
        "W",
        "e"
      ],
      [
        "ĠE",
        "r"
      ],
      [
        "s",
        "e"
      ],
      [
        "Ã¼",
        "s"
      ],
      [
        "I",
        "n"
      ],
      [
        "is",
        "e"
      ],
      [
        "en",
        "n"
      ],
      [
        "Ġw",
        "or"
      ],
      [
        "un",
        "d"
      ],
      [
        "Ġm",
        "ust"
      ],
      [
        "Ġsh",
        "ould"
      ],
      [
        "ation",
        "s"
      ],
      [
        "ĠParl",
        "ament"
      ],
      [
        "ĠM",
        "r"
      ],
      [
        "f",
        "en"
      ],
      [
        "Ġa",
        "pp"
      ],
      [
        "i",
        "re"
      ],
      [
        "Ġs",
        "ie"
      ],
      [
        "at",
        "es"
      ],
      [
        "es",
        "ch"
      ],
      [
        "o",
        "u"
      ],
      [
        "o",
        "d"
      ],
      [
        "Ġbe",
        "en"
      ],
      [
        "Ġs",
        "ein"
      ],
      [
        "Ġa",
        "g"
      ],
      [
        "is",
        "h"
      ],
      [
        "Ġa",
        "d"
      ],
      [
        "g",
        "t"
      ],
      [
        "Ġbe",
        "t"
      ],
      [
        "ĠE",
        "nt"
      ],
      [
        "m",
        "s"
      ],
      [
        "Ġa",
        "m"
      ],
      [
        "Ġn",
        "ach"
      ],
      [
        "Ġein",
        "er"
      ],
      [
        "ĠH",
        "err"
      ],
      [
        "Ġd",
        "is"
      ],
      [
        "Ġb",
        "ut"
      ],
      [
        "Ġp",
        "art"
      ],
      [
        "Ã¶",
        "n"
      ],
      [
        "Ġl",
        "i"
      ],
      [
        "ur",
        "ch"
      ],
      [
        "u",
        "d"
      ],
      [
        "Ġm",
        "an"
      ],
      [
        "ĠP",
        "rÃ¤sident"
      ],
      [
        "Ġre",
        "port"
      ],
      [
        "er",
        "t"
      ],
      [
        "Ġo",
        "ur"
      ],
      [
        "Ã¼",
        "hr"
      ],
      [
        "Ġ",
        "en"
      ],
      [
        "or",
        "e"
      ],
      [
        "ro",
        "m"
      ],
      [
        "g",
        "ra"
      ],
      [
        "Ġ",
        "2"
      ],
      [
        "m",
        "p"
      ],
      [
        "Ġ",
        "Ã"
      ],
      [
        "ĠParl",
        "iament"
      ],
      [
        "i",
        "z"
      ],
      [
        "r",
        "Ã¼"
      ],
      [
        "l",
        "ic"
      ],
      [
        "c",
        "c"
      ],
      [
        "Ġy",
        "ou"
      ],
      [
        "Ġ",
        "qu"
      ],
      [
        "ĠPres",
        "ident"
      ],
      [
        "Ã¼s",
        "sen"
      ],
      [
        "Ġun",
        "ter"
      ],
      [
        "ĠRe",
        "g"
      ],
      [
        "c",
        "on"
      ],
      [
        "Ġ",
        "O"
      ],
      [
        "ul",
        "t"
      ],
      [
        "a",
        "ge"
      ],
      [
        "Ġh",
        "e"
      ],
      [
        "Ã¤",
        "r"
      ],
      [
        "ĠA",
        "b"
      ],
      [
        "th",
        "er"
      ],
      [
        "an",
        "z"
      ],
      [
        "al",
        "ly"
      ],
      [
        "Ġc",
        "omm"
      ],
      [
        "h",
        "er"
      ],
      [
        "a",
        "ble"
      ],
      [
        "Ġf",
        "a"
      ],
      [
        "Ġp",
        "rop"
      ],
      [
        "ve",
        "l"
      ],
      [
        "Ġs",
        "te"
      ],
      [
        "g",
        "er"
      ],
      [
        "ar",
        "d"
      ],
      [
        "Ġbe",
        "i"
      ],
      [
        "om",
        "e"
      ],
      [
        "Ã¤",
        "t"
      ],
      [
        "Ġf",
        "rom"
      ],
      [
        "lich",
        "e"
      ],
      [
        "n",
        "e"
      ],
      [
        "Ġo",
        "b"
      ],
      [
        "Ġ",
        "us"
      ],
      [
        "ol",
        "le"
      ],
      [
        "ion",
        "en"
      ],
      [
        "Ġcon",
        "c"
      ],
      [
        "Ġli",
        "ke"
      ],
      [
        "Ġm",
        "Ã¼ssen"
      ],
      [
        "a",
        "p"
      ],
      [
        "ĠM",
        "it"
      ],
      [
        "Ġk",
        "Ã¶n"
      ],
      [
        "Ġim",
        "p"
      ],
      [
        "ĠmÃ¶",
        "chte"
      ],
      [
        "ĠG",
        "e"
      ],
      [
        "omm",
        "en"
      ],
      [
        "ĠM",
        "ember"
      ],
      [
        "Ġsp",
        "e"
      ],
      [
        "ch",
        "en"
      ],
      [
        "Ġdies",
        "e"
      ],
      [
        "Ġne",
        "ed"
      ],
      [
        "r",
        "it"
      ],
      [
        "ff",
        "en"
      ],
      [
        "z",
        "e"
      ],
      [
        "z",
        "u"
      ],
      [
        "Ġf",
        "in"
      ],
      [
        "ig",
        "keit"
      ],
      [
        "W",
        "ir"
      ],
      [
        "ct",
        "ion"
      ],
      [
        "Ġein",
        "en"
      ],
      [
        "et",
        "t"
      ],
      [
        "gra",
        "m"
      ],
      [
        "g",
        "lie"
      ],
      [
        "k",
        "l"
      ],
      [
        "l",
        "in"
      ],
      [
        "y",
        "ste"
      ],
      [
        "Ġm",
        "ein"
      ],
      [
        "Ġc",
        "o"
      ],
      [
        "Ġit",
        "s"
      ],
      [
        "Ġc",
        "an"
      ],
      [
        "g",
        "an"
      ],
      [
        "o",
        "ut"
      ],
      [
        "Ġm",
        "uÃŁ"
      ],
      [
        "im",
        "e"
      ],
      [
        "u",
        "te"
      ],
      [
        "ol",
        "ic"
      ],
      [
        "ich",
        "er"
      ],
      [
        "Ġle",
        "g"
      ],
      [
        "ar",
        "y"
      ],
      [
        "ch",
        "e"
      ],
      [
        "Ġz",
        "w"
      ],
      [
        "r",
        "ie"
      ],
      [
        "h",
        "e"
      ],
      [
        "Ġg",
        "o"
      ],
      [
        "Ġdies",
        "em"
      ],
      [
        "Ġso",
        "ll"
      ],
      [
        "Ġdies",
        "er"
      ],
      [
        "Ġa",
        "ber"
      ],
      [
        "Ġno",
        "ch"
      ],
      [
        "Th",
        "is"
      ],
      [
        "re",
        "at"
      ],
      [
        "ah",
        "men"
      ],
      [
        "oun",
        "t"
      ],
      [
        "ran",
        "sp"
      ],
      [
        "st",
        "aat"
      ],
      [
        "t",
        "schaft"
      ],
      [
        "Ġd",
        "urch"
      ],
      [
        "oun",
        "c"
      ],
      [
        "I",
        "t"
      ],
      [
        "M",
        "r"
      ],
      [
        "s",
        "icht"
      ],
      [
        "Ġw",
        "ur"
      ],
      [
        "Ġp",
        "os"
      ],
      [
        "st",
        "en"
      ],
      [
        "Ġe",
        "ff"
      ],
      [
        "ier",
        "en"
      ],
      [
        "be",
        "wer"
      ],
      [
        "o",
        "g"
      ],
      [
        "Ã¤n",
        "d"
      ],
      [
        "D",
        "as"
      ],
      [
        "Ġe",
        "urop"
      ],
      [
        "ĠS",
        "ie"
      ],
      [
        "Ġp",
        "olic"
      ],
      [
        "m",
        "er"
      ],
      [
        "res",
        "s"
      ],
      [
        "itte",
        "l"
      ],
      [
        "Ġzu",
        "m"
      ],
      [
        "p",
        "t"
      ],
      [
        "Ġ",
        "ih"
      ],
      [
        "Ġs",
        "u"
      ],
      [
        "Ġex",
        "p"
      ],
      [
        "a",
        "u"
      ],
      [
        "k",
        "ing"
      ],
      [
        "ĠEurop",
        "Ã¤ischen"
      ],
      [
        "Ġcomp",
        "et"
      ],
      [
        "j",
        "ect"
      ],
      [
        "l",
        "o"
      ],
      [
        "k",
        "s"
      ],
      [
        "Ġm",
        "ore"
      ],
      [
        "Ġprop",
        "os"
      ],
      [
        "Ġal",
        "le"
      ],
      [
        "ett",
        "bewer"
      ],
      [
        "ettbewer",
        "b"
      ],
      [
        "Ġin",
        "c"
      ],
      [
        "us",
        "s"
      ],
      [
        "ĠE",
        "U"
      ],
      [
        "ounc",
        "il"
      ],
      [
        "ĠC",
        "ouncil"
      ],
      [
        "ĠAr",
        "beit"
      ],
      [
        "c",
        "y"
      ],
      [
        "at",
        "ive"
      ],
      [
        "olit",
        "ik"
      ],
      [
        "Ġth",
        "ese"
      ],
      [
        "Ġg",
        "ro"
      ],
      [
        "glie",
        "d"
      ],
      [
        "Ġp",
        "o"
      ],
      [
        "ĠC",
        "omm"
      ],
      [
        "ĠkÃ¶n",
        "nen"
      ],
      [
        "ion",
        "al"
      ],
      [
        "Ġn",
        "ur"
      ],
      [
        "Ġk",
        "ann"
      ],
      [
        "Ġver",
        "y"
      ],
      [
        "a",
        "ÃŁ"
      ],
      [
        "g",
        "lich"
      ],
      [
        "im",
        "m"
      ],
      [
        "Ġb",
        "es"
      ],
      [
        "tro",
        "l"
      ],
      [
        "H",
        "err"
      ],
      [
        "ar",
        "k"
      ],
      [
        "ic",
        "e"
      ],
      [
        "s",
        "id"
      ],
      [
        "Ġb",
        "er"
      ],
      [
        "Ġw",
        "enn"
      ],
      [
        "for",
        "e"
      ],
      [
        "t",
        "ra"
      ],
      [
        "an",
        "ce"
      ],
      [
        "id",
        "en"
      ],
      [
        "Ġa",
        "cc"
      ],
      [
        "e",
        "ar"
      ],
      [
        "Ġ",
        "("
      ],
      [
        "an",
        "g"
      ],
      [
        "Ġis",
        "s"
      ],
      [
        "o",
        "h"
      ],
      [
        "le",
        "ich"
      ],
      [
        "Ã¼",
        "n"
      ],
      [
        "Ġj",
        "ust"
      ],
      [
        "Ġl",
        "a"
      ],
      [
        "Ġim",
        "port"
      ],
      [
        "ord",
        "n"
      ],
      [
        "ĠK",
        "on"
      ],
      [
        "ier",
        "ung"
      ],
      [
        "Ġg",
        "en"
      ],
      [
        "el",
        "y"
      ],
      [
        "o",
        "ch"
      ],
      [
        "Ġ",
        "up"
      ],
      [
        "Ġp",
        "re"
      ],
      [
        "Ġon",
        "e"
      ],
      [
        "Ġj",
        "ed"
      ],
      [
        "us",
        "am"
      ],
      [
        "le",
        "ar"
      ],
      [
        "ic",
        "al"
      ],
      [
        "ier",
        "t"
      ],
      [
        "yste",
        "m"
      ],
      [
        "icher",
        "heit"
      ],
      [
        "Ġthe",
        "ir"
      ],
      [
        "st",
        "it"
      ],
      [
        "ĠE",
        "in"
      ],
      [
        "ĠSt",
        "ates"
      ],
      [
        "ig",
        "ht"
      ],
      [
        "usam",
        "men"
      ],
      [
        "d",
        "u"
      ],
      [
        "er",
        "st"
      ],
      [
        "an",
        "k"
      ],
      [
        "ge",
        "l"
      ],
      [
        "Ã¤",
        "hr"
      ],
      [
        "Ġwh",
        "o"
      ],
      [
        "Ġn",
        "ational"
      ],
      [
        "o",
        "ll"
      ],
      [
        "Ġ",
        "ch"
      ],
      [
        "os",
        "e"
      ],
      [
        "Ġin",
        "ter"
      ],
      [
        "Ġwh",
        "at"
      ],
      [
        "ĠW",
        "ettbewerb"
      ],
      [
        "eh",
        "men"
      ],
      [
        "i",
        "ble"
      ],
      [
        "w",
        "ir"
      ],
      [
        "Ġo",
        "ut"
      ],
      [
        "Ġres",
        "p"
      ],
      [
        "Ġ",
        "i"
      ],
      [
        "at",
        "ed"
      ],
      [
        "Ġh",
        "in"
      ],
      [
        "Ġm",
        "o"
      ],
      [
        "Ġm",
        "y"
      ],
      [
        "ur",
        "al"
      ],
      [
        "as",
        "s"
      ],
      [
        "ĠMit",
        "glied"
      ],
      [
        "on",
        "der"
      ],
      [
        "ul",
        "ar"
      ],
      [
        "Ġse",
        "hr"
      ],
      [
        "ug",
        "h"
      ],
      [
        "ĠVor",
        "sch"
      ],
      [
        "a",
        "re"
      ],
      [
        "E",
        "s"
      ],
      [
        "ĠRe",
        "ch"
      ],
      [
        "staat",
        "en"
      ],
      [
        "g",
        "r"
      ],
      [
        "it",
        "ies"
      ],
      [
        "at",
        "ter"
      ],
      [
        "c",
        "ess"
      ],
      [
        "w",
        "end"
      ],
      [
        "on",
        "s"
      ],
      [
        "em",
        "ent"
      ],
      [
        "o",
        "k"
      ],
      [
        "Ġt",
        "ime"
      ],
      [
        "ar",
        "en"
      ],
      [
        "Ġp",
        "e"
      ],
      [
        "i",
        "ff"
      ],
      [
        "ut",
        "ion"
      ],
      [
        "ment",
        "s"
      ],
      [
        "Ġpart",
        "ic"
      ],
      [
        "Ġa",
        "id"
      ],
      [
        "ĠJ",
        "ahr"
      ],
      [
        "w",
        "ic"
      ],
      [
        "pp",
        "ort"
      ],
      [
        "Ġ",
        "if"
      ],
      [
        "Ġo",
        "der"
      ],
      [
        "ar",
        "beit"
      ],
      [
        "Ġcon",
        "t"
      ],
      [
        "lie",
        "ÃŁ"
      ],
      [
        "Ġconc",
        "ern"
      ],
      [
        "f",
        "Ã¼hr"
      ],
      [
        "un",
        "kt"
      ],
      [
        "re",
        "ich"
      ],
      [
        "Ġg",
        "es"
      ],
      [
        "Ġk",
        "ein"
      ],
      [
        "la",
        "g"
      ],
      [
        "ĠL",
        "e"
      ],
      [
        "i",
        "ous"
      ],
      [
        "r",
        "y"
      ],
      [
        "Ã¼",
        "ck"
      ],
      [
        "Ġbe",
        "c"
      ],
      [
        "if",
        "ic"
      ],
      [
        "Ġcompet",
        "ition"
      ],
      [
        "Ġp",
        "er"
      ],
      [
        "Ġ",
        "ra"
      ],
      [
        "ĠR",
        "at"
      ],
      [
        "i",
        "ÃŁ"
      ],
      [
        "el",
        "t"
      ],
      [
        "a",
        "k"
      ],
      [
        "Ġein",
        "em"
      ],
      [
        "con",
        "om"
      ],
      [
        "Ġ",
        "\""
      ],
      [
        "in",
        "t"
      ],
      [
        "ĠW",
        "e"
      ],
      [
        "Ġde",
        "c"
      ],
      [
        "Ġpolic",
        "y"
      ],
      [
        "a",
        "g"
      ],
      [
        "Ġd",
        "am"
      ],
      [
        "l",
        "an"
      ],
      [
        "er",
        "v"
      ],
      [
        "il",
        "ity"
      ],
      [
        "vel",
        "op"
      ],
      [
        "o",
        "c"
      ],
      [
        "on",
        "e"
      ],
      [
        "Ġne",
        "w"
      ],
      [
        "aus",
        "e"
      ],
      [
        "al",
        "t"
      ],
      [
        "Ġi",
        "hr"
      ],
      [
        "m",
        "ein"
      ],
      [
        "v",
        "ent"
      ],
      [
        "iv",
        "en"
      ],
      [
        "ĠMitglied",
        "staaten"
      ],
      [
        "c",
        "ed"
      ],
      [
        "l",
        "os"
      ],
      [
        "it",
        "e"
      ],
      [
        "ig",
        "h"
      ],
      [
        "Ġp",
        "olit"
      ],
      [
        "Ġpartic",
        "ular"
      ],
      [
        "l",
        "Ã¤"
      ],
      [
        "Ġw",
        "eit"
      ],
      [
        "un",
        "ity"
      ],
      [
        "Ġst",
        "r"
      ],
      [
        "c",
        "es"
      ],
      [
        "Ġp",
        "res"
      ],
      [
        "Ġso",
        "w"
      ],
      [
        "Ġab",
        "out"
      ],
      [
        "ut",
        "h"
      ],
      [
        "etz",
        "t"
      ],
      [
        "w",
        "n"
      ],
      [
        "it",
        "u"
      ],
      [
        "ĠK",
        "olle"
      ],
      [
        "Ġy",
        "ear"
      ],
      [
        "u",
        "en"
      ],
      [
        "Ġin",
        "d"
      ],
      [
        "Ġin",
        "t"
      ],
      [
        "Ġh",
        "ier"
      ],
      [
        "as",
        "sen"
      ],
      [
        "ĠRech",
        "ts"
      ],
      [
        "Ġthe",
        "y"
      ],
      [
        "Ġo",
        "p"
      ],
      [
        "ig",
        "er"
      ],
      [
        "te",
        "il"
      ],
      [
        "as",
        "e"
      ],
      [
        "Ġimport",
        "ant"
      ],
      [
        "le",
        "gen"
      ],
      [
        "ent",
        "r"
      ],
      [
        "st",
        "r"
      ],
      [
        "ĠCommission",
        "er"
      ],
      [
        "Ġta",
        "ke"
      ],
      [
        "f",
        "ahr"
      ],
      [
        "te",
        "t"
      ],
      [
        "Ġon",
        "ly"
      ],
      [
        "Ġw",
        "o"
      ],
      [
        "a",
        "uf"
      ],
      [
        "Ġw",
        "icht"
      ],
      [
        "ir",
        "st"
      ],
      [
        "Ġge",
        "gen"
      ],
      [
        "Ġde",
        "velop"
      ],
      [
        "in",
        "e"
      ],
      [
        "in",
        "n"
      ],
      [
        "Ġme",
        "hr"
      ],
      [
        "00",
        "0"
      ],
      [
        "Ġwur",
        "de"
      ],
      [
        "Ġt",
        "ransp"
      ],
      [
        "Ġe",
        "conom"
      ],
      [
        "ĠZ",
        "eit"
      ],
      [
        "it",
        "Ã¤t"
      ],
      [
        "Ġbe",
        "g"
      ],
      [
        "Ġge",
        "w"
      ],
      [
        "Ġdies",
        "es"
      ],
      [
        "ih",
        "il"
      ],
      [
        "Ġqu",
        "est"
      ],
      [
        "Ġt",
        "e"
      ],
      [
        "Ġan",
        "y"
      ],
      [
        "Ġc",
        "ount"
      ],
      [
        "Ġre",
        "c"
      ],
      [
        "Ġre",
        "l"
      ],
      [
        "itte",
        "e"
      ],
      [
        "ĠFra",
        "ge"
      ],
      [
        "ĠAr",
        "t"
      ],
      [
        "Ġpropos",
        "al"
      ],
      [
        "uth",
        "or"
      ],
      [
        "Ġs",
        "ome"
      ],
      [
        "Ġs",
        "ay"
      ],
      [
        "ah",
        "l"
      ],
      [
        "ib",
        "t"
      ],
      [
        "id",
        "e"
      ],
      [
        "sch",
        "e"
      ],
      [
        "Ġk",
        "on"
      ],
      [
        "ĠZ",
        "usammen"
      ],
      [
        "Ġ199",
        "9"
      ],
      [
        "wic",
        "kl"
      ],
      [
        "Ġp",
        "r"
      ],
      [
        "am",
        "e"
      ],
      [
        "am",
        "p"
      ],
      [
        "Ġno",
        "w"
      ],
      [
        "hal",
        "b"
      ],
      [
        "n",
        "ahmen"
      ],
      [
        "w",
        "ort"
      ],
      [
        "Ġs",
        "ol"
      ],
      [
        "ge",
        "b"
      ],
      [
        "Ġeurop",
        "Ã¤ischen"
      ],
      [
        "on",
        "g"
      ],
      [
        "Ġf",
        "e"
      ],
      [
        "m",
        "ittel"
      ],
      [
        "Ġo",
        "ther"
      ],
      [
        "Ġg",
        "u"
      ],
      [
        "Ġma",
        "ke"
      ],
      [
        "ĠPro",
        "ble"
      ],
      [
        "Ġs",
        "uch"
      ],
      [
        "Ġre",
        "p"
      ],
      [
        "ĠK",
        "ommiss"
      ],
      [
        "we",
        "en"
      ],
      [
        "Ġih",
        "re"
      ],
      [
        "Ġv",
        "ie"
      ],
      [
        "ort",
        "ug"
      ],
      [
        "um",
        "ent"
      ],
      [
        "ĠD",
        "e"
      ],
      [
        "lo",
        "y"
      ],
      [
        "Ġber",
        "eit"
      ],
      [
        "it",
        "i"
      ],
      [
        "Ġs",
        "ub"
      ],
      [
        "Ġde",
        "b"
      ],
      [
        "un",
        "ds"
      ],
      [
        "Ġin",
        "s"
      ],
      [
        "Ġin",
        "tern"
      ],
      [
        "Ã¤",
        "ische"
      ],
      [
        "ing",
        "s"
      ],
      [
        "ig",
        "n"
      ],
      [
        "sch",
        "ie"
      ],
      [
        "der",
        "ung"
      ],
      [
        "Ġwh",
        "en"
      ],
      [
        "ĠG",
        "r"
      ],
      [
        "Ġm",
        "ark"
      ],
      [
        "Ġc",
        "lear"
      ],
      [
        "Ġg",
        "r"
      ],
      [
        "ben",
        "s"
      ],
      [
        "Ġbet",
        "ween"
      ],
      [
        "stit",
        "ut"
      ],
      [
        "itu",
        "ation"
      ],
      [
        "ľ",
        "ber"
      ],
      [
        "Ġa",
        "uthor"
      ],
      [
        "Ġh",
        "o"
      ],
      [
        "ur",
        "es"
      ],
      [
        "ĠB",
        "ere"
      ],
      [
        "Ġag",
        "ain"
      ],
      [
        "ĠKommiss",
        "ar"
      ],
      [
        "z",
        "ial"
      ]
    ]
  }
}